[PAD]
[UNK]
[START]
[END]
!
"
#
$
%
&
'
(
)
*
+
,
-
.
/
0
1
2
3
4
5
6
7
8
9
:
;
<
=
>
?
@
[
\
]
^
_
`
a
b
c
d
e
f
g
h
i
j
k
l
m
n
o
p
q
r
s
t
u
v
w
x
y
z
|
}
~
¡
¢
£
¥
§
°
±
·
¿
×
æ
ð
ø
þ
đ
ħ
ı
ł
œ
ɐ
ɑ
ɒ
ɔ
ə
ɛ
ɜ
ɡ
ɢ
ɪ
ɫ
ɳ
ɽ
ɾ
ʁ
ʃ
ʊ
ʋ
ʒ
ʔ
ʕ
ʻ
ʼ
ʾ
ʿ
ˈ
ˌ
ː
α
β
γ
δ
ε
η
θ
ι
κ
λ
μ
ν
ξ
ο
π
ρ
σ
τ
υ
φ
χ
ψ
ω
а
б
в
г
д
е
ж
з
и
к
л
м
н
о
п
р
с
т
у
х
ц
ш
ъ
ы
ь
ю
я
є
א
ב
ג
ה
ו
ז
ח
י
ל
ם
מ
ן
נ
ס
ף
פ
צ
ר
ש
ת
ء
ا
ب
ة
ت
ث
ج
ح
خ
د
ذ
ر
س
ش
ص
ع
ف
ق
ك
ل
م
ن
ه
و
ي
ܐ
ܕ
ܗ
ܝ
ܠ
ܢ
ܬ
अ
ई
क
ग
ण
त
द
न
प
ब
म
य
र
ल
व
स
ह
ा
ि
আ
ল
হ
া
ਅ
ਲ
ਹ
ਾ
അ
ള
ഹ
ാ
ก
ค
ง
ช
ซ
ญ
ฐ
ณ
ด
ต
น
บ
ป
พ
ภ
ม
ย
ร
ล
ว
ศ
ษ
ส
ห
อ
ฮ
ะ
า
เ
แ
ไ
ა
ბ
გ
დ
ე
ვ
ზ
თ
ი
კ
ლ
მ
ნ
ო
პ
ჟ
რ
ს
ტ
უ
ფ
ქ
ღ
ყ
შ
ჩ
ც
ძ
წ
ჭ
ხ
ჯ
ჰ
ჱ
ჲ
ჳ
ჴ
ჵ
ჶ
ჷ
ჸ
ჹ
ჺ
჻
ᄃ
ᄅ
ᄇ
ᄋ
ᄌ
ᅡ
ᅢ
ᅦ
ᅧ
ᅩ
ᅮ
ᅵ
ᆨ
ᆫ
ᆯ
ᆸ
ᆼ
ᵻ
‐
–
—
―
‘
’
“
”
„
†
‡
•
′
⁄
₣
₤
€
₹
→
−
≡
≤
☉
☫
♀
♭
♯
⚳
ⴀ
ⴂ
ⴃ
ⴈ
ⴌ
ⴕ
ⴟ
〈
〉
〜
あ
い
う
お
か
き
く
け
こ
さ
し
す
せ
た
ち
っ
つ
と
な
に
の
は
ひ
ふ
ほ
ま
み
め
も
ゃ
ゆ
ょ
ら
り
る
れ
わ
を
ん
ァ
ア
ィ
イ
ゥ
ウ
ェ
エ
ォ
オ
カ
キ
ク
ケ
コ
サ
シ
ス
セ
タ
チ
ッ
ツ
テ
ト
ナ
ニ
ネ
ノ
ハ
フ
ヘ
マ
ミ
ム
モ
ャ
ュ
ョ
ラ
リ
ル
レ
ロ
ン
・
ー
一
七
下
世
丙
中
主
乃
之
乙
九
二
云
人
今
付
作
侗
依
信
傳
儚
充
光
全
兵
其
具
円
再
出
判
前
剛
劇
劉
動
化
北
华
厂
去
古
可
台
史
同
名
君
吳
周
命
和
咲
善
四
國
園
圣
在
坂
堤
場
塘
夕
大
天
夫
女
妙
姚
子
孟
守
安
宋
完
宗
宝
宫
寝
寺
小
少
尾
山
岳
川
州
巳
市
師
平
广
庆
府
座
廬
建
式
張
彌
彩
彼
後
御
德
思
愛
憑
憶
應
懷
战
戦
扈
技
拉
拳
挑
揺
攻
放
政
散
斯
方
日
旦
旭
昌
明
星
春
晋
景
曦
月
望
未
本
李
村
杜
束
来
林
桜
梶
棘
椎
楊
楚
榮
橘
機
正
殻
殿
母
水
汉
沂
沙
河
泗
波
泣
洪
淹
清
湯
漢
澄
澤
火
灯
灵
灼
焼
熱
物
狐
狸
玄
王
玩
珂
珙
球
理
琦
琪
瓊
生
田
畢
番
瘡
白
皮
真
砲
礮
祈
神
祠
秋
空
立
精
約
絵
織
義
翠
者
耕
肖
胡
膀
臂
興
良
花
芳
芽
若
英
藕
藥
蘄
蘇
行
裁
規
覺
观
解
記
誓
誡
誰
謎
许
谭
豪
豫
費
贵
赤
趙
足
跡
転
辛
逆
遇
運
過
遠
選
邦
邱
部
郭
都
酈
里
野
金
銃
鋼
錄
錡
鍵
鐵
钱
铁
關
防
阿
陈
陳
陽
隊
階
集
雪
雲
霖
霹
靂
韓
願
顯
颜
马
高
龍
�
the
of
and
in
to
##s
was
on
as
that
for
with
by
is
it
from
at
his
he
were
##ing
##ed
an
had
which
be
are
this
their
but
##e
first
##d
##ly
not
one
they
its
also
after
##a
her
or
two
have
##y
has
##er
been
##n
who
##t
she
new
during
other
when
time
##r
all
into
more
##l
##es
would
##i
##o
over
while
##al
game
only
most
three
about
up
later
may
between
him
there
song
##on
some
than
out
no
year
made
season
city
such
before
##h
where
used
series
them
being
000
both
many
these
second
world
years
##m
however
film
album
south
through
north
then
can
part
war
several
##us
number
including
against
well
##an
known
became
##ic
state
##k
four
under
although
united
##ers
early
century
day
following
##th
began
because
so
music
##u
like
work
called
end
episode
##ation
##in
##ion
said
until
found
could
area
##le
american
states
people
since
each
##ity
released
same
british
around
10
team
did
along
long
church
##ia
million
five
##0
back
john
national
high
##man
company
another
best
##ment
##g
##en
use
you
if
september
##ting
final
##c
august
large
river
what
west
km
off
down
due
life
##te
games
##rs
line
will
june
##able
name
now
any
received
##ry
home
described
much
##tion
within
group
six
government
##p
storm
october
played
species
took
set
east
july
general
wrote
##is
league
family
won
late
single
system
road
according
us
##b
##or
play
times
based
record
third
april
major
man
included
just
book
those
march
show
video
##3
even
january
named
very
left
##ist
england
men
##re
white
main
##5
small
though
school
division
york
##ian
way
near
##ness
original
12
last
november
20
club
old
place
15
water
##ty
##z
built
##land
own
december
we
##1
songs
character
##ge
##ie
top
##st
##ted
30
##ce
player
death
do
form
king
de
##2
black
##ch
##ts
tropical
next
german
island
make
still
##f
##nt
public
##x
##ble
##ter
2009
led
##4
2010
again
2008
##ton
##um
moved
##ra
role
without
university
history
often
among
recorded
further
love
considered
##ling
local
ii
military
##ine
army
star
side
period
great
2007
came
house
##na
100
published
written
continued
##6
power
english
town
run
days
held
story
##ate
french
14
16
##ne
forces
11
support
18
25
##age
##8
half
##ous
few
force
take
##ies
having
throughout
land
hurricane
point
become
county
##it
children
order
light
2011
international
title
different
lost
former
##ar
release
ship
##ive
2006
version
despite
field
route
common
13
members
production
similar
gave
produced
##7
short
february
little
park
dylan
southern
once
##w
given
live
site
television
total
band
##nce
country
career
central
2012
control
include
northern
##ism
track
position
re
young
fire
writing
battalion
making
never
away
seven
lead
how
reported
air
seen
good
western
development
open
stated
##v
eastern
age
2013
red
returned
st
tour
instead
across
body
established
god
service
attack
ft
using
##id
##ke
highway
match
ships
week
population
##se
noted
less
reached
head
my
america
developed
battle
royal
eight
building
rock
brigade
president
thought
right
ireland
modern
players
##ated
result
##at
miles
himself
london
father
important
per
performed
felt
various
##ant
17
construction
full
areas
feet
win
##less
low
previous
australia
died
events
##ments
guitar
too
went
##red
mm
originally
others
level
upon
##9
##et
23
kingdom
project
range
started
##ley
formed
performance
##way
art
football
james
should
##est
style
human
political
women
##ance
50
##ls
21
caused
eventually
located
port
28
19
##ll
24
created
cup
characters
sent
able
critics
##ck
ground
me
works
stars
2004
born
region
##de
night
##ally
street
2005
center
director
together
class
strong
##line
court
every
##ma
award
##les
remained
son
##ized
completed
hero
see
##ding
scored
##el
##ham
announced
guns
novel
##ro
australian
22
almost
26
behind
least
##ning
damage
grand
popular
##son
added
chart
fourth
##ve
ten
followed
heavy
killed
months
##ns
appeared
brown
party
present
return
addition
wife
does
##ri
##tic
success
##ions
##ary
aircraft
coast
taken
features
sea
##ful
##ire
david
playing
##led
leading
##ised
##ure
2003
design
either
list
served
action
europe
front
towards
2015
championship
france
##field
decided
put
close
mother
##il
believed
elements
generally
gold
magazine
##hip
fleet
ever
operations
##ations
##ish
example
sold
soon
##ct
##ir
female
goal
##ging
carey
move
significant
infantry
weeks
points
rather
##as
records
##me
awards
campaign
poem
27
opened
outside
recording
##cy
##tor
brought
finished
fort
robert
directed
help
##by
go
study
european
##ent
##ta
earlier
featured
non
william
get
wales
case
##ded
successful
victory
federer
manager
##ng
law
member
mi
provided
##ds
association
gun
mid
start
village
working
##ries
act
opening
wanted
appearance
council
stage
##ned
##ving
particularly
jordan
roman
initially
troops
40
post
yard
find
largest
29
evidence
saw
attempt
far
2014
dam
george
tech
blue
##ite
##va
above
atlantic
month
possible
summer
yards
##la
##ot
rest
review
19th
allowed
depression
office
saying
##ville
winds
event
hours
special
type
florida
union
##ating
whom
##ring
##nd
500
creek
worked
##ad
##ward
community
designed
plan
police
##ka
##ner
missouri
nine
previously
##ities
##ors
cross
forced
free
200
praised
society
real
remains
##ual
2001
increased
process
official
come
hall
middle
race
radio
regiment
lower
michael
station
studio
base
replaced
##ious
command
commander
parliament
parts
ball
operation
taking
units
writer
hill
research
relationship
highest
beginning
claimed
co
estimated
industry
navy
era
mph
section
##ide
bay
canada
joined
stone
##ping
average
don
museum
placed
college
food
involved
japanese
signed
social
##ny
##ur
goals
met
oldham
suggested
introduced
itself
lines
shot
sometimes
stories
31
##co
##rd
complete
face
olivier
scene
training
##ow
going
paul
religious
available
thus
today
business
date
give
henry
##ile
additional
loss
mexico
nearly
reviews
term
whose
##ms
##rt
approximately
india
must
past
sound
##os
already
appointed
damaged
entire
friends
horse
indian
irish
thomas
told
capital
shows
fifth
issue
native
prior
probably
sun
turned
commercial
language
male
mark
forest
passed
program
##ical
change
earth
length
students
winning
##ey
##ped
especially
britain
child
enough
size
woman
##ise
better
captain
chinese
failed
mixed
names
structure
##ves
cast
christian
forward
notes
ny
our
##ha
##ons
limited
media
overall
##da
##ial
ordered
running
wheeler
arrived
civil
includes
might
moving
network
remaining
spent
##ists
larger
usually
##ler
birds
department
hand
hit
pacific
uk
##ron
2002
changes
future
latter
required
##men
##rate
canadian
debut
decision
iii
lake
minor
space
##ible
regular
wide
##bs
##ut
africa
round
appear
##am
##der
cathedral
crew
groups
mounted
san
##ory
##ue
2000
supported
territory
view
00
billboard
critical
ended
nature
positive
pressure
centre
feature
finally
score
films
rachel
##tive
becoming
jin
particular
provide
shown
smaller
voice
always
anti
discovered
money
##ki
difficult
flight
related
science
shortly
squadron
##ay
##den
##ee
##ore
##ular
board
charles
defeated
minutes
person
saint
##ified
lack
private
subsequently
temple
##ined
big
books
japan
living
mass
musical
peter
press
surface
##ize
experience
nations
staff
upper
word
zealand
##que
1995
fact
material
trade
##be
##cent
##ford
60
greater
idea
intended
mostly
room
tv
##ft
##pe
bridge
captured
cut
gods
largely
news
scientology
teams
##ence
##ps
education
interest
likely
metres
themselves
##ming
cm
collection
haifa
key
numbers
referred
response
self
##ins
mountain
problems
yet
##ig
##ited
##ium
##ver
contract
got
machine
xenon
##om
##wood
bill
constructed
contains
entered
makes
primary
whole
##ged
cover
greatest
headquarters
majority
ranked
square
##ings
airport
listed
morning
poor
tower
wall
##ier
##ks
2016
leaving
professional
starting
whether
##ved
officers
traffic
create
effects
fighting
information
##cing
##res
45
certain
changed
companies
competition
fans
pass
report
turn
##ber
deal
jack
jewish
soldiers
##sion
##tes
agreed
dead
episodes
forms
galveston
know
launched
lived
natural
proposed
unit
##one
runs
studies
##tions
assigned
california
direct
friend
increase
location
minute
quickly
2nd
compared
lyrics
movement
occurred
plans
theme
valley
##go
1999
inside
leave
things
trees
appears
artillery
concert
defeat
destroyed
double
hot
ocean
queen
true
##ines
condoms
independent
longer
richard
takes
tons
asked
awarded
villa
carried
chicago
contemporary
culture
daughter
schools
traditional
##ya
cause
conducted
election
interview
proteins
ran
sixth
something
writers
annual
associated
district
ending
lady
latin
services
singles
source
##to
##tors
buildings
burns
current
health
alice
artist
commented
married
polish
unable
##ice
alkan
ancient
brother
conference
done
empire
numerous
pre
1998
deep
image
nixon
producer
quarter
standard
##ang
##ening
##its
##ric
400
al
albums
corps
influence
inspired
la
scenes
##ria
1st
cyclone
issued
minister
republic
tracks
earned
meaning
##ability
##ca
##im
##ration
80
bird
directly
giving
mosley
peak
piano
variety
##dy
##ill
##tt
1993
1996
begins
busch
committee
daily
immediately
initial
marriage
positions
texas
via
actor
liverpool
status
terms
##ization
##mer
castle
coach
dark
green
helped
planned
ross
stay
your
##ered
##ess
attacks
bowl
broadcast
christmas
closed
effect
figure
fowler
fox
somerset
spanish
suffered
think
##ade
##ga
##gation
##sa
20th
african
blood
meant
nearby
taylor
##pa
##ute
chief
defense
historical
management
presence
presented
raised
safe
wing
38
75
author
continue
covered
girl
individual
nuclear
reach
really
twenty
##ara
35
composed
vocals
##als
##ld
attempts
below
beyonce
extended
marked
organization
##ard
##ase
##my
##rian
##ris
##ster
call
figures
##ud
higher
officer
super
uses
##ae
##ald
##ze
camp
carolina
catholic
fell
germany
needed
selected
virginia
##ak
##gate
##her
300
cell
el
hard
here
highly
personal
rule
speed
##ong
allowing
assembly
attacked
bodies
comedy
countries
federal
festival
hour
pop
situation
##ick
advance
course
edge
los
offensive
van
want
##iled
##sh
##un
1997
distance
miami
movie
opera
places
rate
recent
singer
specific
widely
active
cadmium
copies
fiction
hold
hospital
levels
means
metal
offered
peaked
removed
subject
##istic
##lin
##op
##port
edition
energy
meeting
paris
percent
powerful
protein
respectively
scoring
scotland
tradition
typically
##ants
##ell
##nts
academy
allow
attempted
baby
combined
genus
hands
iron
le
performances
prince
responsible
##ai
##out
china
complex
describes
need
observed
sets
##ress
##time
anderson
audience
chris
governor
heavily
houses
husband
islands
matches
mile
pennsylvania
theatre
##io
##ius
boy
car
clear
combat
reduced
##ges
##house
##j
1991
armed
concluded
fall
kakapo
parents
plot
resulted
rights
wind
1992
account
appearances
arts
completely
condom
cost
defence
looking
quality
stating
strength
##val
activity
calling
featuring
managed
minnesota
reports
revealed
separate
sister
stop
1994
3rd
artists
conditions
cultural
declared
draw
look
mary
refused
##ain
##and
##ans
##ky
##ulated
##za
birth
jackson
relief
residents
rosebery
therefore
townsend
##back
##ians
##ok
approach
beach
coming
expected
formation
leg
naval
seasons
stadium
walpole
wave
##ti
70
actions
efforts
finals
mainly
meyerbeer
plays
tessa
##ral
##rn
##ters
##ties
activities
actually
attention
becomes
cricket
emperor
follow
foreign
nicole
shiva
words
1970
pair
security
struck
yue
##hy
##ition
##logy
braathens
eye
issues
lord
mount
practice
primarily
sales
scale
soundtrack
transport
ultimately
write
##lt
achieved
cannot
casualties
critic
italian
ottoman
sense
titles
##erry
##ina
##tle
accepted
alone
authority
channel
elected
fight
finkelstein
job
johnson
master
spring
tournament
##mes
##shire
##tical
alongside
amount
authorities
entertainment
flooding
fully
hotel
northeast
paper
rainfall
roles
serious
sir
slightly
smith
weather
workers
##ker
##med
antimony
broken
independence
newspaper
owned
remain
silver
##bed
##ics
1986
36
branch
expressed
foot
foundation
inches
males
sequence
soviet
spain
standing
access
affected
battery
colony
defensive
except
frank
letters
officials
portuguese
say
showed
sports
titled
twice
##ger
##per
##via
ability
commission
fey
fish
legal
northwest
ridge
toward
vietnam
visit
zhou
angeles
fruit
influenced
meet
mentioned
mission
says
tintin
varanasi
welsh
##ced
##ction
##sing
##ying
33
90
continues
data
disease
earliest
flying
individuals
nesbitt
prevent
produce
##ars
##side
##town
##ture
adopted
bank
computer
concept
financial
founded
historic
keep
lives
market
perfect
read
resulting
script
sites
tree
##aging
##cts
##hic
150
1990
39
basis
dedicated
engineer
eva
lot
mr
odaenathus
officially
physical
represented
sarnia
singing
sr
themes
viewers
##berg
##gs
##ining
##mi
advantage
begin
build
digital
direction
doing
domestic
dumont
executive
increasing
losing
rear
studios
surrounding
##dies
##don
##izing
##ncy
##rain
##sed
18th
acting
faced
israel
manchester
maximum
olympic
peace
reason
reign
relatively
sides
transferred
##ake
##lan
##pt
##up
aid
attended
cities
females
heart
illinois
link
older
organized
peron
piece
secret
thick
tried
##des
##ern
##mit
##old
##rey
1988
beyond
capture
charge
drive
effort
freeway
meanwhile
proved
sources
student
test
unlike
winter
##li
alabama
believe
designated
determined
divided
intensity
oil
possibly
potential
shape
##ect
##hi
##off
animal
conflict
fly
follows
helms
journey
kind
medical
model
omaha
paid
washington
yellow
##hed
##ney
##well
1960s
47
arms
boat
border
break
ceres
core
dance
dr
focus
historian
images
institute
mogadishu
nation
prime
rose
simply
supporting
types
##ba
##ctive
##ff
##king
##no
1940
am
background
economic
edward
entrance
growing
kept
onto
planet
portion
returning
##ches
##lands
##ss
##ther
1980s
archaeological
argued
innis
joseph
kg
rare
technology
underground
wilhelm
##aw
bishop
buried
golden
grew
homes
knowledge
letter
mccall
note
pay
playstation
railway
rihanna
rugby
secretary
structures
suggests
website
weekly
##cated
##ets
##mate
##tte
1964
actress
advanced
bob
causing
couple
criticized
currently
gained
hair
landing
orders
reference
treaty
volume
##ix
##light
##ored
##stone
##uring
5th
baseball
containing
debuted
equipment
guest
hamels
horses
lane
lock
projects
prominent
reaching
results
sexual
travel
##ages
##rated
1947
32
abandoned
box
chosen
contrast
crown
djedkare
draft
enemy
importance
theory
##ol
##ray
##ship
ahead
analysis
baltimore
cases
claims
consecutive
escape
granted
inch
jupiter
leader
newly
property
rejected
seems
torres
unknown
##head
##ica
##ith
##ological
andrew
commonly
impact
increasingly
multiple
settlement
visited
##eer
##fied
##len
##let
1941
administration
applewhite
assault
breeding
broke
campus
care
content
crazy
deities
identified
lands
nominated
passing
regions
rise
scottish
seconds
touchdown
wounded
##ects
##ened
##late
beat
cells
color
creation
feel
haven
killing
operated
pine
promoted
religion
risk
screen
secondary
senior
solo
systems
temperature
unique
##ole
##ound
1989
agreement
aired
anonymous
bbc
egyptian
famous
fired
greek
literature
moment
opposed
save
selling
share
thing
##bit
##board
##day
##ii
##mar
##stic
1970s
1985
9th
animals
chapel
controlled
fantasy
growth
mouth
nothing
promotion
stations
##bie
##cks
##cus
##ys
1972
1984
4th
barrow
bass
boats
choice
confirmed
croatia
drama
dvd
explained
filmed
hope
ideas
mike
outer
pieces
poetry
revolution
serve
writes
##ight
##ock
##zed
1987
adult
consisted
cougar
herself
invasion
notable
offer
perform
pitched
rapidly
regarded
vocal
weapons
##ites
##ret
##rry
##sm
actors
aspects
avoid
battalions
bond
cardiff
depth
fame
families
flow
gives
philadelphia
premier
wood
##bing
##od
1944
bring
extensive
keats
landfall
maintained
murder
occur
ode
retired
semi
value
##ator
##ington
##mark
##play
##rum
##sive
##ust
600
claim
connected
creating
dropped
failure
km2
matter
phase
ray
reaction
roads
seventh
sign
significantly
sport
steve
subsequent
sustained
urban
ve
versions
weight
##ico
##nes
##sis
1960
1990s
andy
chains
filming
finding
gulf
hms
hundred
injury
interchange
italy
laid
passes
recognized
scheduled
slam
transit
truth
try
visual
walls
##asing
##ast
##ators
##ature
##ification
##logical
##mon
##ology
##tation
##vised
abu
chose
height
humans
necessary
perhaps
producers
province
publication
search
sought
spread
stand
starts
tom
why
##oy
##row
##uck
##vation
americans
comic
fought
frequently
medieval
popularity
prepared
recently
represent
##ased
##bar
##ens
dated
degree
employed
ends
gradually
nucleus
rating
request
stones
##ied
##ja
##ple
##rid
##uit
##vin
bad
bid
chapter
comes
contained
facilities
generation
guard
michigan
nathan
peninsula
powers
protection
regarding
shaped
southeast
thunderbirds
trial
vietnamese
wild
##han
##ography
##ream
17th
1942
1981
ai
allows
athletes
bc
budget
cited
collected
contributed
finds
improved
intelligence
jim
negative
oxford
problem
serving
severe
sex
transfer
treatment
worldwide
##ising
##lair
##mp
##night
##ren
34
bottom
champion
commissioned
contain
effective
entirely
kill
lieutenant
neither
policy
programs
safety
##air
##cher
##hs
##py
1918
1950s
arab
centuries
cold
concrete
develop
dutch
dynasty
expanded
gain
host
items
kilometres
let
lewis
losses
memorial
motion
pilot
simple
slowly
survey
text
threat
turner
vice
williams
##body
##bury
##hood
##ko
##pic
##rie
12th
1939
boston
canal
com
criticism
decade
decades
display
drawn
experienced
folk
lisa
mario
path
reasons
roughly
russian
shell
straight
##em
##etic
##ran
##rough
##wa
1965
1969
37
42
51
championships
dates
deaths
didn
dota
engaged
europium
evening
evita
extra
floor
join
martin
nba
occasionally
pope
rain
southwest
stages
supply
##ats
##ily
##ni
1975
44
additionally
allied
avenue
bar
editor
girls
ice
massive
nor
occupied
purchased
rich
sentence
speaking
successfully
train
violence
waters
##form
##iment
##used
1968
boise
composition
declined
die
dollar
glass
gordon
gully
quite
tell
##au
##bo
##can
##cle
##ids
##ried
700
appeal
arrival
begun
briefly
category
churches
dress
drew
fur
jamal
jane
khanh
learned
longest
miss
paintings
permanent
plant
poet
setting
tail
tennyson
torpedo
wedding
##do
##ook
##ung
##water
48
800
adding
applied
attorney
authors
brian
congress
eyes
guide
leaders
normal
possibility
sector
slow
zone
##ably
##ach
##acy
##culated
##mise
##zing
1974
49
accompanied
acres
ali
basin
cap
condition
conservation
crowd
des
enjoyed
fields
hired
liu
macleod
marine
moves
nest
participated
planning
remix
responded
scholars
settlers
simon
thirty
##30
##78
##burn
##fer
##matic
##nal
##ses
##use
1966
ad
brothers
calls
clubs
combination
contact
developing
existence
existing
happy
heads
heard
journal
mind
oldest
performing
simone
skin
youth
##ason
##ched
##date
##ders
##ify
##rest
1950
53
anthony
apart
bell
chorus
competitions
consists
dominated
earthquake
egypt
enter
fellow
goes
holy
imperial
justice
lasted
literary
opportunity
populations
purpose
reserve
reviewers
thousands
typical
widespread
younger
##bly
##come
##ural
1919
1936
1952
anything
capable
cardinal
ceremony
chance
charter
closely
coastal
crime
details
element
engine
everything
funding
greatly
hip
interior
joint
jump
missing
monument
mountains
painting
receiving
routes
snow
stopped
ulysses
weakened
##cope
##gi
##ient
##lock
##over
##rush
##tone
##ulate
##ulation
1946
1973
64
assistant
billion
caught
creator
derived
dog
economy
engineering
exist
headed
kang
provides
reality
serves
similarly
task
tells
transportation
vehicles
##bel
##ctor
##lated
##une
##yer
1930s
1967
bought
caribbean
classified
dissipated
filled
flights
formula
holding
innings
invited
jazz
juan
md
moon
noisy
priest
ring
rolling
seat
storyline
survived
technical
turkish
turning
viewed
##aries
##asa
##ces
##cial
##gated
##ically
##iers
##ita
##lating
##mented
1914
1930
1971
65
6th
acquired
aml
classic
colonel
describing
douglas
establish
falls
gas
grade
hornung
industrial
louis
max
mean
question
reading
receive
restaurant
shared
towns
trying
watched
ways
##ates
##bits
##ex
##inated
##pes
##rts
##table
##ured
##vi
##work
##yn
1945
1982
asia
atmosphere
constantine
converted
destiny
evil
faith
fine
focused
ga
hibari
label
locations
mortal
mtv
palace
perry
rail
regional
rio
rural
scott
sky
technique
trip
vision
von
whereas
##fa
##gle
##lf
##lish
##ously
##rates
##ul
1976
arranged
assistance
boys
brief
carry
champions
chelsea
depicted
dry
eagle
electronic
engineers
entering
entry
establishment
grant
knew
library
maeda
mushroom
ones
oslo
penalty
poems
providing
renamed
rivers
romani
rules
store
succeeded
sweet
teaching
wins
##ea
##isation
##lic
##oo
##ord
##posing
##rable
##ras
##tory
##tus
##yle
1943
8th
agent
article
attached
certified
clean
consisting
credited
dating
decline
defined
delivered
finish
georgian
haiti
jones
opinion
opposition
prize
regime
rescue
separated
spacing
supplies
tied
venus
##burg
##ji
##lation
##low
##mous
##ood
##tan
##yard
10th
1916
adapted
allah
charts
commanded
eighth
everglades
examples
hits
ign
kent
method
methods
novels
professor
protect
rarely
usa
##aa
##ception
##ering
##ten
##ways
1963
1980
41
43
acid
alexander
basketball
camps
classes
colonies
communist
fuel
iguanodon
indicate
leaves
montana
morrison
narrow
pattern
portrayed
progress
remainder
rome
shooting
suggest
utc
##50
##ana
##ata
##graphy
##hing
##ional
##lies
##non
##urt
11th
16th
1953
1956
1978
accounts
athletic
australians
chairman
columbia
discovery
drop
dublin
facing
fear
finishing
fun
gameplay
grey
incident
jersey
occurs
politics
producing
protected
protest
reception
siege
specifically
sunday
tests
threatened
turns
window
worst
##60
##ath
##een
##fully
##tz
##wing
55
appearing
charlie
civilian
colonial
croatian
daniel
denied
desire
divine
favorite
feeling
feelings
fountain
getting
gray
hearts
hollywood
interested
introduction
jain
leads
maryland
masters
noting
online
personnel
secure
spirit
statement
strike
studied
successor
trujillo
views
walter
wooden
##aded
##all
##bility
##che
##formed
##ides
##iles
##imate
##ino
##nis
##ures
1913
1915
7th
96
acts
agricultural
alan
alternative
archaeology
arthur
basic
cd
dismissed
fictional
hindu
holds
homer
inner
lords
maintain
memory
message
mississippi
outstanding
picture
principal
rangers
reputation
reviewer
rifles
roxas
samuel
seeing
soil
supreme
##ace
##bles
##coming
##di
##down
##ef
##itation
##iting
##lings
##lis
##mal
##sey
##vers
250
56
activision
attributed
capacity
chemical
considerable
discussed
drawing
fa
honor
howard
knots
maria
measure
opponents
plants
replace
speech
steel
target
watch
##70
##inate
##ives
##kes
##kin
##nia
##ob
##ree
##urs
##verse
1917
arsenal
bart
biography
bit
bradford
calvert
challenge
charges
chess
communities
continuing
count
danny
difficulty
distinct
dna
dollars
exchange
expedition
flank
forests
function
global
habitat
inland
isabella
kings
mix
nbc
ninth
offers
railroad
ruled
session
someone
specimens
taught
##ag
##ap
##cked
##dication
##ever
##ished
##izes
##kins
##lm
##nary
##nic
120
adventure
bolivar
changing
divisions
duke
emotional
enterprise
gate
guardian
involvement
magic
none
pitch
prey
romantic
signing
solid
standards
strand
teacher
theater
tomb
towers
twelve
yankovic
##37
##ep
##gas
##gin
##iling
##irs
##mann
##mation
##ond
##pect
##pose
##rating
##rged
##rror
##rted
##saurus
##ume
##und
##ven
1948
1961
95
brigades
candidate
clarkson
coal
counter
crossing
distribution
door
exit
faces
firm
flood
frederick
heritage
hills
historians
labour
landed
launch
leadership
mine
miner
missions
mode
offense
passage
rocky
sarajevo
split
squad
stephen
victoria
worship
##ez
##lls
##og
##ony
##pelled
##right
##room
##sisted
##vada
1937
1979
94
adults
agency
aston
believes
bono
breaking
bringing
connection
description
destroyers
distributed
documentary
estate
extremely
fit
fungus
grow
intersection
jifna
lee
legs
muslim
parties
picked
races
recommended
replacement
respect
secured
somali
soul
teeth
wars
wilde
##ball
##cted
##gal
##gen
##ior
##ires
##itch
##ivated
##lacing
##lle
##mination
##our
##plied
##sy
##uan
##ux
##wick
##zer
1954
alien
concerns
extreme
gone
ha
isolated
kitsune
learning
missed
nevertheless
nightingale
nomination
observations
op
santa
sections
shore
showing
skye
surrounded
surviving
territories
windows
##ah
##aked
##bi
##ching
##iary
##iate
##iation
##nation
##tary
##uary
46
61
academic
anniversary
approached
argentina
banai
characteristics
classical
commonwealth
controversy
detailed
diameter
emerged
encouraged
existed
fashion
francisco
hamilton
immediate
joe
ll
manner
marines
marks
multi
nc
organizations
origin
partial
raid
ratings
rooms
simpsons
tribes
tries
wants
##fy
##gates
##ifying
##illa
##lia
##nance
##oc
##pan
##tely
##tent
##we
##worth
1949
1951
1955
1958
1977
3d
52
adams
admiral
apparent
arrangement
attempting
brien
carter
constitution
courts
crossed
eggs
electric
fan
firing
fresh
giant
hoped
institutions
olympics
protests
regularly
relationships
rival
ryan
sons
suffering
talk
treated
unusual
weak
##19
##active
##cs
##die
##eo
##ination
##lished
##lore
##ou
##rant
##uted
##zi
13th
54
62
admitted
aged
airline
approved
assumed
counties
dream
footage
franchise
gerard
herge
hundreds
identity
improve
indeed
initiative
lennon
neck
owner
plain
pointed
possession
rapid
references
relative
reunion
sequel
sessions
strongly
tall
throw
triple
verse
visible
wearing
##cover
##ew
##fies
##force
##gue
##ibility
##ingly
##key
##lk
##lo
##oe
##tal
##usted
##ution
1983
85
accept
accused
adjacent
armor
attracted
bce
camera
concerned
concerts
destroy
duties
easily
fixed
frame
freedom
gallery
goffman
hop
indicated
janeiro
kilmer
languages
laws
looked
norman
partly
practices
protagonist
roger
saprang
spot
streets
tales
terminus
tunnel
winner
##48
##ban
##com
##hew
##ices
##ich
##ope
##tter
1920
au
belt
completion
composer
convoy
debate
designation
effectively
expansion
falling
genre
georgia
guy
heaven
incorporated
jean
jerusalem
lawton
medium
mention
ministry
musicians
pool
prison
publishing
rated
recognition
reconnaissance
reconstruction
reduce
register
remnants
require
resources
richardson
rifle
sand
scientific
settled
shots
somalia
specimen
starling
tank
traveled
trials
un
videos
warm
##dic
##dom
##mond
##nded
##oke
##ologist
##oral
##ories
##rus
##using
afterwards
amateur
aniston
attacking
burn
cambridge
christ
dramatic
driving
fast
funds
ghost
hear
holiday
inspiration
jesus
kombat
lb
measures
medal
meets
obtained
operating
painted
pitcher
pleasure
purchase
recalled
recovered
roll
ruler
seemed
solar
somewhat
stands
supposed
surrender
worth
##art
##bet
##ert
##ike
##lee
##lly
##ops
##rew
##udo
##uing
##uts
1910
1931
1935
adam
ages
arc
aviation
blocks
controversial
coup
craft
crash
crisis
cycle
destruction
environment
fraser
garcia
germans
hosted
household
internal
keamy
linked
meetings
mega
mole
normally
opposite
parallel
passengers
poland
praise
preserved
pro
pupils
rebels
representing
researchers
ritual
step
tone
township
trail
victims
watershed
##ack
##ale
##atic
##book
##gan
##gar
##he
##hibited
##int
##lli
##oot
##pton
##q
##sen
##shed
##ua
##vant
##vil
##vor
##wards
##ware
##wich
1909
1912
1932
arabic
ben
bridges
cake
cancer
carrying
circulation
colour
compounds
corn
corythosaurus
covering
crosses
dean
defended
destroyer
difficulties
distinguished
else
equipped
expensive
express
forming
generals
grass
income
johnston
judge
nintendo
parks
plunketts
portrait
sculpture
shoot
sisters
speak
stayed
stevens
table
throwing
trading
vessel
##40
##97
##ail
##ek
##fe
##ini
##ku
##more
##nah
##nds
##olis
##rous
##vated
1921
1929
76
anzac
beautiful
bound
cloud
comments
consider
cult
defeating
defences
disaster
disc
eleven
elsewhere
exception
fia
hockey
institution
jose
junior
lawrence
legislation
lowest
marlborough
mill
occasions
otherwise
patrick
programme
promote
pushed
responsibility
restoration
returns
sing
tailed
voted
wimbledon
wolf
wrong
##80
##aving
##cise
##gration
##nces
##oes
##rative
##rity
##ros
##style
##taining
##uous
##ura
1911
1938
57
arrested
artificial
batsman
block
bone
bright
cambodia
citing
closer
criminal
desert
drum
earl
elizabeth
equivalent
essential
fei
gates
impossible
intensified
interaction
internet
involving
iv
korean
lap
learn
mobile
monuments
motor
netherlands
objects
owen
panel
periods
plum
quick
raise
retained
roof
sees
sell
stefani
survivors
tribute
understanding
unsuccessful
vessels
villages
voiced
wine
##91
##abled
##dia
##ees
##ght
##gies
##hall
##heim
##ils
##inal
##inking
##ivity
##long
##lton
##mic
##mura
##och
##oned
##rial
##rupted
##ude
##ult
##uses
##vis
##ws
1962
66
absence
apparently
belief
biographer
burning
canterbury
cave
cbs
committed
convection
convention
covers
criticised
deployed
dialogue
doesn
farm
graph
helmet
hunting
ill
mediterranean
moments
narrative
needs
notably
observatory
overseas
palestine
pitman
preferred
prerogative
princess
products
proposal
recordings
resistance
reveals
saved
selection
stanley
supporters
tie
visitors
wings
##32
##ala
##aurus
##dation
##hips
##icial
##ift
##ign
##iness
##ip
##laimed
##lyn
##mates
##mb
##nse
##oking
##owed
##rad
##rations
##ridge
##set
##vel
110
1959
71
81
aerith
amino
atlanta
bureau
canyon
carol
charity
collaboration
colorado
considers
context
democratic
drums
extension
fallen
flat
followers
formally
heat
intense
journalist
kick
latex
lbw
legend
mayor
modified
monarch
phillies
platoon
posted
ready
refers
representative
represents
shipping
slide
stationed
steam
storms
suggesting
tale
warning
##awa
##bon
##cc
##eral
##esh
##fare
##gular
##hai
##laim
##lar
##lers
##lution
##mo
##nder
##ntly
##piece
##pper
##rical
##rop
##tain
##tant
##ths
##uff
##unt
##writer
1920s
ace
annually
aware
cemetery
choir
climate
cruiser
da
depending
detail
displays
dominican
en
engines
ensure
exposure
extent
fate
furtado
happened
imagine
informed
laboratory
lose
markgraf
musician
poorly
purposes
raffles
ranges
sacred
saves
stable
submarine
temples
thereafter
trust
universal
vehicle
##20
##ac
##con
##dar
##dd
##gh
##lithic
##mont
##nate
##outs
##pen
##ram
##rg
##si
##vision
##wald
15th
1940s
advertising
ago
assist
barker
cape
causes
clay
coins
communications
demand
dock
doubt
driven
entitled
fifa
garden
housing
influential
injuries
layer
lists
materials
mexican
models
muscaria
nhl
opportunities
orbit
plane
product
productions
proper
publisher
rates
regard
sale
scholar
sholay
simultaneously
situated
starlings
superior
talking
throne
trouble
u2
watching
waterfall
withdraw
withdrew
##25
##53
##ading
##ative
##boy
##cade
##cular
##eged
##fort
##ked
##lted
##oll
##oth
##ruce
##tending
##tric
##uda
##zen
72
77
98
altar
ammunition
baker
burned
cat
circumstances
credits
deck
driver
easy
excavation
factors
generated
grammy
historically
influences
installed
instruments
israeli
maggie
manga
movements
networks
norway
operate
organ
originated
partially
pick
platform
portugal
representatives
republican
sequences
severely
spoke
substantial
thousand
victories
##bra
##door
##duction
##ec
##ett
##harp
##hol
##iated
##ink
##itive
##nant
##rator
##rich
##sts
##tend
##thology
##ump
##yra
##zhou
1927
1928
accident
actual
adventures
amongst
anekantavada
anime
anyone
athletics
behaviour
biggest
bulls
carved
dangerous
dc
directors
emergency
establishing
everyone
favor
gwen
interests
looks
miller
mixture
municipal
option
page
parvati
relations
rhythm
shark
shells
spores
stem
subspecies
survive
swedish
sword
thinking
ustase
walk
whilst
wilson
writings
##94
##ash
##dle
##els
##gy
##iser
##mical
##mpty
##nating
##own
##roy
##sman
##teenth
##tly
##tra
##where
1900
59
agents
bearing
behavior
broad
cars
chamber
citizens
compete
corporation
dawn
delayed
departure
downtown
eaton
environmental
fifteen
formerly
forty
gary
howe
hurricanes
instance
interesting
jr
kannada
khandoba
map
massachusetts
moral
object
phoenix
plateau
predators
premiered
radiation
readers
resigned
restored
richmond
rising
spend
stewart
struggle
sub
sung
tanks
techniques
usd
veronica
wasn
westward
##38
##54
##59
##96
##af
##cate
##ecting
##fication
##formation
##gon
##ility
##lip
##lying
##mers
##oms
##pected
##race
##raduate
##rage
##rance
##rap
##read
##rge
##sessed
##teen
##try
##uation
##urage
##wed
##zong
1933
achieve
affairs
application
archbishop
arm
armored
audiences
catechism
clearly
continental
correct
costs
dan
differences
experiences
forcing
founder
hart
illustrated
inhg
jeff
jurchen
loose
marquez
matt
measured
midge
minimum
moderate
mozambique
mulder
pole
price
prove
recognised
recovery
reinforcements
residence
resolution
sang
scientists
skills
sounds
terrorist
trained
twins
understand
universe
useful
vary
wright
##35
##72
##acked
##chy
##ci
##dated
##iz
##lain
##los
##mission
##mps
##nn
##odon
##rent
##ribute
##ride
##smen
##tch
##tta
##ucky
##ull
##visions
##weight
1957
900
address
archaeologist
badly
bear
boxing
caves
characterized
cleared
coleman
convinced
creative
crops
defending
depicts
designs
documents
engage
federation
flower
format
fund
gilbert
grounds
grown
huge
kevin
mental
moore
objective
oh
plus
promised
ranging
remarked
revolutionary
russia
saturday
scheme
scully
shakespeare
shop
simpson
sort
starred
sufficient
tactics
toronto
virgin
wisniowiecki
wives
##42
##aged
##cide
##cles
##ents
##eria
##erial
##hor
##icket
##inson
##ired
##lash
##ledged
##oles
##ose
##pur
##real
##ribe
##rons
##semble
##sia
##tail
##tia
##ugh
##ury
##uzzle
##vian
##vy
130
21st
arriving
aspect
bath
benefit
blues
bones
boundary
bush
cavalry
ch
childhood
claiming
clock
closest
column
communication
crake
cubs
decides
describe
designer
determine
displayed
duty
elections
ex
excavations
factory
feathers
formal
frelimo
giants
graphics
hamlet
han
hokies
hull
impressed
infrastructure
inscription
intention
kansas
martial
mechanical
nick
occupation
offices
opponent
oscar
owners
parish
partner
personality
predecessor
presentation
raaf
ranking
regiments
ride
streak
styles
temporary
texts
tide
valuable
vote
wasp
wicca
willing
wrestling
zoo
##00
##65
##92
##ately
##ays
##borne
##cal
##cu
##grants
##hal
##logist
##lot
##mbling
##nell
##nna
##oon
##osaurus
##petitive
##prising
##rapping
##rit
##scribed
##tered
##una
##ushing
##vention
##win
07
79
ambassador
architecture
argues
arrive
aside
attained
bands
blacks
centers
charged
cinema
conduct
considering
deemed
degrees
detroit
difference
erected
exclusively
explains
inhabitants
isbn
jobs
jonathan
kelly
lay
machines
magnitude
mrs
newspapers
perspective
philosophy
prompted
properties
protestant
quarterback
repeated
residential
restricted
rough
spiritual
strategy
strengthened
turks
updated
victorian
voyage
waiting
##81
##ads
##ago
##bal
##bers
##bert
##ceeded
##cture
##eers
##ery
##gged
##ict
##ital
##lace
##lope
##ncing
##nesses
##rse
##ski
##tein
##vity
##xide
1905
1926
allen
amounts
anthem
artwork
assisted
attend
banned
batteries
brazil
brooks
cater
celebrated
chagas
clark
cruise
defenders
deity
del
diet
distinctive
dominant
exists
exposed
fifty
frequent
furthermore
garrison
globe
handled
heroes
hudson
injured
las
leslie
liberal
magnetic
malley
mathews
metre
northeastern
northward
pagan
premiere
preparation
refer
relation
resumed
retreat
roots
ruling
scattered
spaces
tourist
trek
twin
uefa
valkyria
variation
warren
yo
##17
##51
##56
##66
##alm
##ament
##ances
##bound
##ection
##ender
##fusion
##hant
##ients
##inary
##lane
##laws
##lined
##lon
##lor
##mouth
##nted
##osa
##otes
##pike
##raphic
##sides
##sin
##tract
##uge
##wer
160
1925
63
abby
adaptation
approval
artistic
bertin
bir
breed
brick
cargo
chain
chronicles
circle
code
constant
cotton
dave
delivery
demonstrated
der
disappeared
drug
emmy
enters
executed
false
guilty
highways
honour
jackets
landings
lies
magadheera
magazines
nielsen
nurse
peach
peaking
persian
prevented
publications
pure
pursue
referring
revival
roberts
schedule
seas
seek
settlements
southeastern
stores
structural
substitute
talent
testing
thin
tournaments
turrets
viet
violent
##21
##93
##burgh
##cious
##cist
##culation
##eck
##friend
##gnment
##gram
##inger
##inn
##jan
##lew
##lla
##mits
##ncies
##okes
##oma
##orate
##pert
##posed
##pply
##rass
##rat
##rene
##rio
##suing
##tar
##ub
05
140
1890
1924
88
acre
afternoon
alfred
altered
basement
bible
boom
comics
commandos
corner
crews
davis
defend
definition
demands
diamond
discuss
djokovic
edges
equal
fee
feels
gets
harold
helium
herzegovina
houston
indicating
initiated
inscriptions
investigation
jay
jews
liked
mail
mbar
nebraska
net
pictures
pounds
profile
runway
send
sixteen
soft
stood
striking
subjects
suicide
sunk
suspended
valve
warrior
yankees
##31
##34
##64
##74
##ancy
##ceratops
##cia
##ese
##fic
##graphic
##grated
##hes
##hire
##leton
##lets
##lical
##lied
##loy
##lph
##moke
##ola
##omic
##rising
##stro
##tated
##ues
##van
##wan
1000
1908
1934
acute
anglo
ann
armament
barry
card
carre
celtic
cent
certainly
colleagues
components
concern
conclusion
cong
congo
conservative
cool
discover
du
eliminated
employees
fair
flag
genetic
gift
harbour
hostile
impression
keeping
kurt
madison
measurements
melody
murray
ndh
orchestra
organisation
origins
outbreak
philip
pretty
print
pryce
putting
reader
realized
rebuilt
receives
reducing
requested
respective
retirement
reveal
sas
seeking
seem
swiss
toured
translation
trick
trophy
venues
walking
ward
weapon
weir
withdrawal
##24
##69
##76
##90
##act
##ano
##bes
##du
##end
##fected
##gers
##gn
##ias
##ild
##istan
##lates
##leep
##lement
##lights
##lines
##lity
##lu
##minate
##nus
##ographic
##pressed
##prised
##rf
##rise
##rose
##tends
##tin
##uins
##uity
##vious
abc
architectural
asian
asks
assassination
autumn
bases
battles
benjamin
birthday
chevaliers
chicks
coin
collapsed
commons
compound
cougars
dakota
dams
earning
elaborate
ethnic
evans
expression
favorable
feeding
fishing
geoff
goddess
harrison
hawaiian
kills
labor
madrid
mariana
molecules
ontario
operates
ordering
organised
pale
paramount
passion
potentially
puppet
releases
removal
riding
rounds
runners
satellite
sentences
shoulder
skull
spacecraft
tennessee
toll
tracy
underneath
visiting
wagner
zinc
##33
##75
##82
##bious
##ctions
##erb
##ero
##fession
##iao
##iff
##ifications
##ik
##illing
##ilt
##iments
##imetres
##ique
##iring
##ishing
##kers
##lling
##longed
##mas
##ode
##oid
##pelling
##ponent
##pot
##pping
##racks
##rect
##rilla
##ru
##teroid
##ulu
##usts
##uting
##voked
##xe
08
14th
180
93
acids
advancing
animation
asking
banks
believing
borough
boss
boundaries
ce
christopher
circuit
columns
comparison
completing
contribution
doctor
doctrine
documented
drove
extratropical
fill
grace
hawaii
ingres
jason
krak
loan
lover
omar
oregon
pace
parade
peoples
personally
phrase
platinum
programming
propaganda
pulaski
queensland
questions
remove
rhyme
rush
sculptures
shorter
starring
stock
suitable
symbol
tim
translated
upset
usage
vertical
voices
weekend
wrapped
youngest
##62
##agan
##ao
##caster
##ciate
##ental
##erate
##gian
##hical
##ipe
##jo
##lame
##lature
##like
##lion
##lled
##ller
##lous
##mine
##mma
##most
##nl
##ntal
##oted
##pass
##plement
##rst
##rting
##serted
##ston
##su
##uki
##vard
##vice
##wn
##zes
##zon
1923
58
74
91
abbey
africaine
agree
airlines
battleships
bears
beauty
belgium
biological
bodyline
chase
christine
controller
discussion
dispute
emphasis
encountered
explain
facility
factor
friendly
gap
gravity
greg
herald
hidden
honorary
inclusion
industries
islamic
joining
keys
leigh
louisiana
mainland
millennium
molecular
negotiations
neil
nettles
objectives
pages
parliamentary
powered
prepare
produces
reflected
representation
revised
rhys
romanian
row
sample
signs
sisler
sole
sorraia
spending
strip
submitted
suddenly
sugar
surgery
telugu
temporarily
territorial
theatrical
tip
topped
traded
ultimate
vast
veracruz
wildlife
wish
woodhouse
##01
##58
##85
##98
##ari
##bling
##cape
##cription
##cturing
##edar
##eds
##eep
##fire
##idae
##inh
##lave
##lized
##llo
##mentary
##name
##natural
##nk
##oring
##phone
##raising
##rint
##tro
##truct
##uch
##umes
##urge
##ush
##vert
##wned
##xed
06
1922
766th
82
abilities
administrative
advice
amanita
anne
approaches
argentine
armies
asomtavruli
assembled
ballad
briggs
cabinet
cash
casting
charted
choose
clinton
collapse
commenting
consequently
couldn
cresswell
cullen
daughters
degrom
demolished
eat
enemies
ernest
eventual
finale
fitted
goat
illegal
jardine
jury
korea
likewise
marry
memories
meters
nevesinje
pain
percentage
prisoners
prix
pulled
punt
sailed
select
shares
sheffield
shrine
signal
sony
steps
strategic
struggled
threw
underwent
universities
unnamed
upgraded
volumes
wishes
##36
##47
##63
##77
##99
##acted
##arge
##arm
##arn
##ato
##bine
##bu
##cation
##cence
##city
##dal
##dment
##dos
##eering
##ein
##eller
##ensis
##isms
##itude
##lance
##list
##nee
##oca
##ods
##ogue
##oning
##osis
##pers
##plicated
##point
##position
##ption
##quest
##ression
##ressive
##rmal
##rot
##round
##sell
##sphere
##tum
##umor
##unch
##utz
##vo
##volves
##vour
##yers
##zzi
02
09
360
89
accompanying
achievement
aggressive
agriculture
allies
appointment
architect
arvn
audio
beats
beings
bennett
biddenden
brand
burial
caesar
campbell
carries
chronicle
classification
commands
connecting
controls
conversation
corpus
credit
dag
danger
decisions
dershowitz
developers
drivers
eshmun
flies
ian
idaho
keith
lakes
lanes
lesser
logic
mainstream
merely
offering
ongoing
parody
patrol
pattycake
permission
pilots
pink
pohl
presidential
provincial
racing
reduction
reforms
reviewed
rotation
shift
sings
sioux
smooth
snake
spin
stellar
string
sweden
switzerland
synagogue
telling
temperatures
tenth
tony
typhoon
unlikely
usher
walker
wanderers
westminster
wwf
##10
##55
##79
##agon
##ained
##bines
##bition
##brate
##chment
##cian
##cting
##dian
##erly
##gel
##gg
##hu
##isers
##itarian
##itt
##itter
##lad
##lence
##mel
##ndant
##nie
##of
##oop
##oto
##ox
##ployment
##ponding
##put
##reed
##rises
##roll
##rupt
##rve
##so
##solved
##tropical
##ued
##uration
##urse
##vn
130th
1907
350
add
aerial
albert
alberta
animated
backed
bat
belgian
carmel
charlotte
columbus
commandment
conflicts
crest
decay
dense
depicting
deputy
dies
duo
duration
ed
elevation
exactly
fernandez
fusion
gardens
gene
genera
gospel
hat
helping
ibis
investment
junction
kong
lessing
leukemia
lifetime
loud
mac
madero
mccartney
measuring
metropolitan
nazi
observation
pairs
policies
pregnancy
preparing
preston
punishment
reactions
senator
singapore
speaker
sporting
spots
sq
sure
tax
teachers
themed
tonina
trapped
traveling
travelled
vii
wider
youtube
##88
##aches
##ada
##anna
##are
##aring
##berry
##box
##car
##child
##dden
##dier
##duce
##fford
##ffs
##finals
##fit
##gations
##ib
##iber
##ield
##imeter
##iny
##ket
##lus
##master
##mpo
##nan
##oan
##oys
##power
##pted
##quiring
##races
##rez
##ror
##rove
##rsion
##sess
##tched
##thered
##tock
##tters
##ulk
##urity
##wall
##xis
##zo
1861
1895
1902
67
99
accurate
adelaide
aimed
arkansas
armoured
backing
beliefs
bowling
bronze
cancelled
carpenter
census
chen
closing
commanders
concentrated
contest
cooperation
crusaders
decorated
donated
dover
draws
dubbed
embarked
eve
failing
farmers
feed
flesh
francis
grandfather
harbor
heavier
hell
hoover
hydrogen
indicates
isesi
isle
kate
khan
kit
knights
les
maintaining
manuscripts
mars
matters
nadal
offshore
onwards
partnership
patterns
phone
positively
printed
profit
raising
ranks
recurring
requires
restore
revenue
ron
rushing
sanskrit
searching
seattle
segment
shear
spur
statistics
stavanger
strange
strongest
stuart
sydney
tape
tenure
terrain
tigers
trio
values
wells
μm
##06
##23
##28
##71
##acre
##ange
##ark
##aternal
##atory
##cies
##commissioned
##creation
##ducted
##eed
##enger
##fraid
##gned
##hara
##itor
##iv
##ived
##kyo
##lay
##oked
##ologists
##ome
##osed
##oster
##parts
##racy
##rice
##rk
##ront
##secution
##sions
##sized
##sted
##taken
##tha
##tonio
##ubble
##uid
##uli
##volve
22nd
abroad
acyclic
airports
alive
alliance
angelou
archaeologists
ashore
attitude
balance
balls
battleship
beating
brilliant
broadway
buy
canning
characteristic
civilians
closure
compositions
consistent
conversion
cousin
demon
detected
downstream
dynamic
engagement
everton
evolved
exact
fewer
flowers
fourteen
gaining
grave
harry
hawaiʻi
hnc
horn
hpa
increases
inning
jeremy
jon
lacking
leonard
limit
madonna
membrane
monster
morgan
movies
myself
nave
numbered
occurring
operas
photographs
pitching
poets
pursuit
qualified
reaches
rocks
sam
seats
serbs
seriously
significance
sitting
soldier
solely
stronger
succession
successive
surprise
tend
thirteen
tours
trails
transmission
twentieth
unclear
vegetation
vertex
volunteers
watson
waves
wealthy
whatever
wickets
witchcraft
withdrawn
wore
wyoming
##22
##39
##44
##45
##52
##57
##67
##ards
##armed
##bai
##blazer
##building
##ctures
##eries
##inus
##junction
##leased
##lips
##live
##mbia
##nnis
##oli
##ombs
##ora
##outing
##ove
##owa
##pp
##retched
##rook
##rro
##sity
##stration
##taries
##tis
##trell
##unk
##vent
##vies
1889
194
86
acted
allmusic
allosaurus
appropriate
arabs
arena
arrangements
berlin
blow
bow
bus
candidates
canon
capturing
cards
chair
christi
chrono
clothes
coaching
commerce
compilation
continuous
cruisers
cutting
cyrus
daydream
divorce
dual
dudley
elder
eric
eu
evident
examination
extinct
flash
functions
gaelic
goods
governments
habitats
halo
hampshire
hence
herd
hospitals
hungarian
hunt
hunter
identify
interpreted
jam
joyful
jurchens
kody
loved
m3
machinery
maya
monkey
mothers
mystery
obtain
occasion
operational
opinions
ownership
oxygen
participate
permitted
physics
pirates
plate
ports
pregnant
presents
protesters
puzzles
radical
reinforced
relegated
revived
romania
singers
solution
sora
stakes
starter
targets
taste
te
tissue
uncle
virtually
votes
wear
##15
##27
##29
##83
##86
##87
##arie
##bile
##bow
##ctic
##dicted
##fall
##fficient
##flecting
##gating
##guard
##haw
##ilda
##iscus
##itz
##ken
##konen
##lica
##lides
##lining
##lopes
##mber
##miliar
##ont
##otic
##ov
##pendent
##quate
##ratic
##ributes
##rick
##rict
##rieved
##rik
##rin
##rwin
##sal
##sident
##stal
##tto
##tude
##ulating
##uma
##umber
##ument
##ustic
##yi
03
1849
1903
abuse
announcement
authorized
barrier
bedell
bills
blocked
bradstreet
breaks
bull
carbon
concession
copy
defender
delaware
departed
depiction
derfflinger
dinosaur
dinosaurs
displaced
download
et
etty
exclusive
exhibition
experimental
files
flooded
forever
fortune
helps
housed
hugh
immigration
indigenous
infection
interstate
ioc
kilometers
leeds
margaret
mlb
nominations
palestinian
perceived
phil
pistol
pounder
promotional
puma
questioned
ra
rains
rank
rays
registered
renewed
repair
resemble
restrictions
rhodesian
roller
savage
sciences
seized
sending
sized
sol
tasked
telegraph
tight
touchdowns
touring
trains
understood
utah
varied
vicinity
wait
wellington
worn
xiii
##!
##"
###
##$
##%
##&
##'
##(
##)
##*
##+
##,
##-
##.
##/
##:
##;
##<
##=
##>
##?
##@
##[
##\
##]
##^
##_
##`
##|
##}
##~
##¡
##¢
##£
##¥
##§
##°
##±
##·
##¿
##×
##æ
##ð
##ø
##þ
##đ
##ħ
##ı
##ł
##œ
##ɐ
##ɑ
##ɒ
##ɔ
##ə
##ɛ
##ɜ
##ɡ
##ɢ
##ɪ
##ɫ
##ɳ
##ɽ
##ɾ
##ʁ
##ʃ
##ʊ
##ʋ
##ʒ
##ʔ
##ʕ
##ʻ
##ʼ
##ʾ
##ʿ
##ˈ
##ˌ
##ː
##α
##β
##γ
##δ
##ε
##η
##θ
##ι
##κ
##λ
##μ
##ν
##ξ
##ο
##π
##ρ
##σ
##τ
##υ
##φ
##χ
##ψ
##ω
##а
##б
##в
##г
##д
##е
##ж
##з
##и
##к
##л
##м
##н
##о
##п
##р
##с
##т
##у
##х
##ц
##ш
##ъ
##ы
##ь
##ю
##я
##є
##א
##ב
##ג
##ה
##ו
##ז
##ח
##י
##ל
##ם
##מ
##ן
##נ
##ס
##ף
##פ
##צ
##ר
##ש
##ת
##ء
##ا
##ب
##ة
##ت
##ث
##ج
##ح
##خ
##د
##ذ
##ر
##س
##ش
##ص
##ع
##ف
##ق
##ك
##ل
##م
##ن
##ه
##و
##ي
##ܐ
##ܕ
##ܗ
##ܝ
##ܠ
##ܢ
##ܬ
##अ
##ई
##क
##ग
##ण
##त
##द
##न
##प
##ब
##म
##य
##र
##ल
##व
##स
##ह
##ा
##ि
##আ
##ল
##হ
##া
##ਅ
##ਲ
##ਹ
##ਾ
##അ
##ള
##ഹ
##ാ
##ก
##ค
##ง
##ช
##ซ
##ญ
##ฐ
##ณ
##ด
##ต
##น
##บ
##ป
##พ
##ภ
##ม
##ย
##ร
##ล
##ว
##ศ
##ษ
##ส
##ห
##อ
##ฮ
##ะ
##า
##เ
##แ
##ไ
##ა
##ბ
##გ
##დ
##ე
##ვ
##ზ
##თ
##ი
##კ
##ლ
##მ
##ნ
##ო
##პ
##ჟ
##რ
##ს
##ტ
##უ
##ფ
##ქ
##ღ
##ყ
##შ
##ჩ
##ც
##ძ
##წ
##ჭ
##ხ
##ჯ
##ჰ
##ჱ
##ჲ
##ჳ
##ჴ
##ჵ
##ჶ
##ჷ
##ჸ
##ჹ
##ჺ
##჻
##ᄃ
##ᄅ
##ᄇ
##ᄋ
##ᄌ
##ᅡ
##ᅢ
##ᅦ
##ᅧ
##ᅩ
##ᅮ
##ᅵ
##ᆨ
##ᆫ
##ᆯ
##ᆸ
##ᆼ
##ᵻ
##‐
##–
##—
##―
##‘
##’
##“
##”
##„
##†
##‡
##•
##′
##⁄
##₣
##₤
##€
##₹
##→
##−
##≡
##≤
##☉
##☫
##♀
##♭
##♯
##⚳
##ⴀ
##ⴂ
##ⴃ
##ⴈ
##ⴌ
##ⴕ
##ⴟ
##〈
##〉
##〜
##あ
##い
##う
##お
##か
##き
##く
##け
##こ
##さ
##し
##す
##せ
##た
##ち
##っ
##つ
##と
##な
##に
##の
##は
##ひ
##ふ
##ほ
##ま
##み
##め
##も
##ゃ
##ゆ
##ょ
##ら
##り
##る
##れ
##わ
##を
##ん
##ァ
##ア
##ィ
##イ
##ゥ
##ウ
##ェ
##エ
##ォ
##オ
##カ
##キ
##ク
##ケ
##コ
##サ
##シ
##ス
##セ
##タ
##チ
##ッ
##ツ
##テ
##ト
##ナ
##ニ
##ネ
##ノ
##ハ
##フ
##ヘ
##マ
##ミ
##ム
##モ
##ャ
##ュ
##ョ
##ラ
##リ
##ル
##レ
##ロ
##ン
##・
##ー
##一
##七
##下
##世
##丙
##中
##主
##乃
##之
##乙
##九
##二
##云
##人
##今
##付
##作
##侗
##依
##信
##傳
##儚
##充
##光
##全
##兵
##其
##具
##円
##再
##出
##判
##前
##剛
##劇
##劉
##動
##化
##北
##华
##厂
##去
##古
##可
##台
##史
##同
##名
##君
##吳
##周
##命
##和
##咲
##善
##四
##國
##園
##圣
##在
##坂
##堤
##場
##塘
##夕
##大
##天
##夫
##女
##妙
##姚
##子
##孟
##守
##安
##宋
##完
##宗
##宝
##宫
##寝
##寺
##小
##少
##尾
##山
##岳
##川
##州
##巳
##市
##師
##平
##广
##庆
##府
##座
##廬
##建
##式
##張
##彌
##彩
##彼
##後
##御
##德
##思
##愛
##憑
##憶
##應
##懷
##战
##戦
##扈
##技
##拉
##拳
##挑
##揺
##攻
##放
##政
##散
##斯
##方
##日
##旦
##旭
##昌
##明
##星
##春
##晋
##景
##曦
##月
##望
##未
##本
##李
##村
##杜
##束
##来
##林
##桜
##梶
##棘
##椎
##楊
##楚
##榮
##橘
##機
##正
##殻
##殿
##母
##水
##汉
##沂
##沙
##河
##泗
##波
##泣
##洪
##淹
##清
##湯
##漢
##澄
##澤
##火
##灯
##灵
##灼
##焼
##熱
##物
##狐
##狸
##玄
##王
##玩
##珂
##珙
##球
##理
##琦
##琪
##瓊
##生
##田
##畢
##番
##瘡
##白
##皮
##真
##砲
##礮
##祈
##神
##祠
##秋
##空
##立
##精
##約
##絵
##織
##義
##翠
##者
##耕
##肖
##胡
##膀
##臂
##興
##良
##花
##芳
##芽
##若
##英
##藕
##藥
##蘄
##蘇
##行
##裁
##規
##覺
##观
##解
##記
##誓
##誡
##誰
##謎
##许
##谭
##豪
##豫
##費
##贵
##赤
##趙
##足
##跡
##転
##辛
##逆
##遇
##運
##過
##遠
##選
##邦
##邱
##部
##郭
##都
##酈
##里
##野
##金
##銃
##鋼
##錄
##錡
##鍵
##鐵
##钱
##铁
##關
##防
##阿
##陈
##陳
##陽
##隊
##階
##集
##雪
##雲
##霖
##霹
##靂
##韓
##願
##顯
##颜
##马
##高
##龍
##�
